FFFFFF35
FFFFFEB9
000001CB
000002D3
000006DE
00000150
FFFFFCC7
FFFFFE81
0000073D
FFFFFDD2
FFFFFF7B
0000062B
FFFFFCA2
FFFFFF93
FFFFFF2B
00000033
0000026A
00000A1C
000002EA
000005C6
FFFFFB09
FFFFFA5D
00000417
000001E5
00000180
FFFFFA6D
FFFFFEC9
0000091C
00000036
FFFFF89B
00000438
FFFFFFF0
000002DD
FFFFFF2B
00000108
00000219
FFFFFEEF
00000000
FFFFF737
00000256
00000346
000006D7
FFFFFF49
0000012B
000000A4
FFFFF9D1
00000333
FFFFFAED
000002D6
00000768
FFFFF8E2
00000685
0000019E
00000250
00000278
FFFFFE57
FFFFFCD8
000003E2
000003B1
00000325
0000002A
FFFFFE9A
00000244
00000D95
